{
  "0": "word_0",
  "1": "word_1",
  "2": "word_2",
  "3": "word_3",
  "4": "word_4",
  "5": "word_5",
  "6": "word_6",
  "7": "word_7",
  "8": "word_8",
  "9": "word_9",
  "10": "word_10",
  "11": "word_11",
  "12": "word_12",
  "13": "word_13",
  "14": "word_14",
  "15": "word_15",
  "16": "word_16",
  "17": "word_17",
  "18": "word_18",
  "19": "word_19",
  "20": "word_20",
  "21": "word_21",
  "22": "word_22",
  "23": "word_23",
  "24": "word_24",
  "25": "word_25",
  "26": "word_26",
  "27": "word_27",
  "28": "word_28",
  "29": "word_29",
  "30": "word_30",
  "31": "word_31",
  "32": "word_32",
  "33": "word_33",
  "34": "word_34",
  "35": "word_35",
  "36": "word_36",
  "37": "word_37",
  "38": "word_38",
  "39": "word_39",
  "40": "word_40",
  "41": "word_41",
  "42": "word_42",
  "43": "word_43",
  "44": "word_44",
  "45": "word_45",
  "46": "word_46",
  "47": "word_47",
  "48": "word_48",
  "49": "word_49",
  "50": "word_50",
  "51": "word_51",
  "52": "word_52",
  "53": "word_53",
  "54": "word_54",
  "55": "word_55",
  "56": "word_56",
  "57": "word_57",
  "58": "word_58",
  "59": "word_59",
  "60": "word_60",
  "61": "word_61",
  "62": "word_62",
  "63": "word_63",
  "64": "word_64",
  "65": "word_65",
  "66": "word_66",
  "67": "word_67",
  "68": "word_68",
  "69": "word_69",
  "70": "word_70",
  "71": "word_71",
  "72": "word_72",
  "73": "word_73",
  "74": "word_74",
  "75": "word_75",
  "76": "word_76",
  "77": "word_77",
  "78": "word_78",
  "79": "word_79",
  "80": "word_80",
  "81": "word_81",
  "82": "word_82",
  "83": "word_83",
  "84": "word_84",
  "85": "word_85",
  "86": "word_86",
  "87": "word_87",
  "88": "word_88",
  "89": "word_89",
  "90": "word_90",
  "91": "word_91",
  "92": "word_92",
  "93": "word_93",
  "94": "word_94",
  "95": "word_95",
  "96": "word_96",
  "97": "word_97",
  "98": "word_98",
  "99": "word_99",
  "100": "word_100",
  "101": "word_101",
  "102": "word_102",
  "103": "word_103",
  "104": "word_104",
  "105": "word_105",
  "106": "word_106",
  "107": "word_107",
  "108": "word_108",
  "109": "word_109",
  "110": "word_110",
  "111": "word_111",
  "112": "word_112",
  "113": "word_113",
  "114": "word_114",
  "115": "word_115",
  "116": "word_116",
  "117": "word_117",
  "118": "word_118",
  "119": "word_119",
  "120": "word_120",
  "121": "word_121",
  "122": "word_122",
  "123": "word_123",
  "124": "word_124",
  "125": "word_125",
  "126": "word_126",
  "127": "word_127",
  "128": "word_128",
  "129": "word_129",
  "130": "word_130",
  "131": "word_131",
  "132": "word_132",
  "133": "word_133",
  "134": "word_134",
  "135": "word_135",
  "136": "word_136",
  "137": "word_137",
  "138": "word_138",
  "139": "word_139",
  "140": "word_140",
  "141": "word_141",
  "142": "word_142",
  "143": "word_143",
  "144": "word_144",
  "145": "word_145",
  "146": "word_146",
  "147": "word_147",
  "148": "word_148",
  "149": "word_149",
  "150": "word_150",
  "151": "word_151",
  "152": "word_152",
  "153": "word_153",
  "154": "word_154",
  "155": "word_155",
  "156": "word_156",
  "157": "word_157",
  "158": "word_158",
  "159": "word_159",
  "160": "word_160",
  "161": "word_161",
  "162": "word_162",
  "163": "word_163",
  "164": "word_164",
  "165": "word_165",
  "166": "word_166",
  "167": "word_167",
  "168": "word_168",
  "169": "word_169",
  "170": "word_170",
  "171": "word_171",
  "172": "word_172",
  "173": "word_173",
  "174": "word_174",
  "175": "word_175",
  "176": "word_176",
  "177": "word_177",
  "178": "word_178",
  "179": "word_179",
  "180": "word_180",
  "181": "word_181",
  "182": "word_182",
  "183": "word_183",
  "184": "word_184",
  "185": "word_185",
  "186": "word_186",
  "187": "word_187",
  "188": "word_188",
  "189": "word_189",
  "190": "word_190",
  "191": "word_191",
  "192": "word_192",
  "193": "word_193",
  "194": "word_194",
  "195": "word_195",
  "196": "word_196",
  "197": "word_197",
  "198": "word_198",
  "199": "word_199",
  "200": "word_200",
  "201": "word_201",
  "202": "word_202",
  "203": "word_203",
  "204": "word_204",
  "205": "word_205",
  "206": "word_206",
  "207": "word_207",
  "208": "word_208",
  "209": "word_209",
  "210": "word_210",
  "211": "word_211",
  "212": "word_212",
  "213": "word_213",
  "214": "word_214",
  "215": "word_215",
  "216": "word_216",
  "217": "word_217",
  "218": "word_218",
  "219": "word_219",
  "220": "word_220",
  "221": "word_221",
  "222": "word_222",
  "223": "word_223",
  "224": "word_224",
  "225": "word_225",
  "226": "word_226",
  "227": "word_227",
  "228": "word_228",
  "229": "word_229",
  "230": "word_230",
  "231": "word_231",
  "232": "word_232",
  "233": "word_233",
  "234": "word_234",
  "235": "word_235",
  "236": "word_236",
  "237": "word_237",
  "238": "word_238",
  "239": "word_239",
  "240": "word_240",
  "241": "word_241",
  "242": "word_242",
  "243": "word_243",
  "244": "word_244",
  "245": "word_245",
  "246": "word_246",
  "247": "word_247",
  "248": "word_248",
  "249": "word_249",
  "250": "word_250",
  "251": "word_251",
  "252": "word_252",
  "253": "word_253",
  "254": "word_254",
  "255": "word_255",
  "256": "word_256",
  "257": "word_257",
  "258": "word_258",
  "259": "word_259",
  "260": "word_260",
  "261": "word_261",
  "262": "word_262",
  "263": "word_263",
  "264": "word_264",
  "265": "word_265",
  "266": "word_266",
  "267": "word_267",
  "268": "word_268",
  "269": "word_269",
  "270": "word_270",
  "271": "word_271",
  "272": "word_272",
  "273": "word_273",
  "274": "word_274",
  "275": "word_275",
  "276": "word_276",
  "277": "word_277",
  "278": "word_278",
  "279": "word_279",
  "280": "word_280",
  "281": "word_281",
  "282": "word_282",
  "283": "word_283",
  "284": "word_284",
  "285": "word_285",
  "286": "word_286",
  "287": "word_287",
  "288": "word_288",
  "289": "word_289",
  "290": "word_290",
  "291": "word_291",
  "292": "word_292",
  "293": "word_293",
  "294": "word_294",
  "295": "word_295",
  "296": "word_296",
  "297": "word_297",
  "298": "word_298",
  "299": "word_299",
  "300": "word_300",
  "301": "word_301",
  "302": "word_302",
  "303": "word_303",
  "304": "word_304",
  "305": "word_305",
  "306": "word_306",
  "307": "word_307",
  "308": "word_308",
  "309": "word_309",
  "310": "word_310",
  "311": "word_311",
  "312": "word_312",
  "313": "word_313",
  "314": "word_314",
  "315": "word_315",
  "316": "word_316",
  "317": "word_317",
  "318": "word_318",
  "319": "word_319",
  "320": "word_320",
  "321": "word_321",
  "322": "word_322",
  "323": "word_323",
  "324": "word_324",
  "325": "word_325",
  "326": "word_326",
  "327": "word_327",
  "328": "word_328",
  "329": "word_329",
  "330": "word_330",
  "331": "word_331",
  "332": "word_332",
  "333": "word_333",
  "334": "word_334",
  "335": "word_335",
  "336": "word_336",
  "337": "word_337",
  "338": "word_338",
  "339": "word_339",
  "340": "word_340",
  "341": "word_341",
  "342": "word_342",
  "343": "word_343",
  "344": "word_344",
  "345": "word_345",
  "346": "word_346",
  "347": "word_347",
  "348": "word_348",
  "349": "word_349",
  "350": "word_350",
  "351": "word_351",
  "352": "word_352",
  "353": "word_353",
  "354": "word_354",
  "355": "word_355",
  "356": "word_356",
  "357": "word_357",
  "358": "word_358",
  "359": "word_359",
  "360": "word_360",
  "361": "word_361",
  "362": "word_362",
  "363": "word_363",
  "364": "word_364",
  "365": "word_365",
  "366": "word_366",
  "367": "word_367",
  "368": "word_368",
  "369": "word_369",
  "370": "word_370",
  "371": "word_371",
  "372": "word_372",
  "373": "word_373",
  "374": "word_374",
  "375": "word_375",
  "376": "word_376",
  "377": "word_377",
  "378": "word_378",
  "379": "word_379",
  "380": "word_380",
  "381": "word_381",
  "382": "word_382",
  "383": "word_383",
  "384": "word_384",
  "385": "word_385",
  "386": "word_386",
  "387": "word_387",
  "388": "word_388",
  "389": "word_389",
  "390": "word_390",
  "391": "word_391",
  "392": "word_392",
  "393": "word_393",
  "394": "word_394",
  "395": "word_395",
  "396": "word_396",
  "397": "word_397",
  "398": "word_398",
  "399": "word_399",
  "400": "word_400",
  "401": "word_401",
  "402": "word_402",
  "403": "word_403",
  "404": "word_404",
  "405": "word_405",
  "406": "word_406",
  "407": "word_407",
  "408": "word_408",
  "409": "word_409",
  "410": "word_410",
  "411": "word_411",
  "412": "word_412",
  "413": "word_413",
  "414": "word_414",
  "415": "word_415",
  "416": "word_416",
  "417": "word_417",
  "418": "word_418",
  "419": "word_419",
  "420": "word_420",
  "421": "word_421",
  "422": "word_422",
  "423": "word_423",
  "424": "word_424",
  "425": "word_425",
  "426": "word_426",
  "427": "word_427",
  "428": "word_428",
  "429": "word_429",
  "430": "word_430",
  "431": "word_431",
  "432": "word_432",
  "433": "word_433",
  "434": "word_434",
  "435": "word_435",
  "436": "word_436",
  "437": "word_437",
  "438": "word_438",
  "439": "word_439",
  "440": "word_440",
  "441": "word_441",
  "442": "word_442",
  "443": "word_443",
  "444": "word_444",
  "445": "word_445",
  "446": "word_446",
  "447": "word_447",
  "448": "word_448",
  "449": "word_449",
  "450": "word_450",
  "451": "word_451",
  "452": "word_452",
  "453": "word_453",
  "454": "word_454",
  "455": "word_455",
  "456": "word_456",
  "457": "word_457",
  "458": "word_458",
  "459": "word_459",
  "460": "word_460",
  "461": "word_461",
  "462": "word_462",
  "463": "word_463",
  "464": "word_464",
  "465": "word_465",
  "466": "word_466",
  "467": "word_467",
  "468": "word_468",
  "469": "word_469",
  "470": "word_470",
  "471": "word_471",
  "472": "word_472",
  "473": "word_473",
  "474": "word_474",
  "475": "word_475",
  "476": "word_476",
  "477": "word_477",
  "478": "word_478",
  "479": "word_479",
  "480": "word_480",
  "481": "word_481",
  "482": "word_482",
  "483": "word_483",
  "484": "word_484",
  "485": "word_485",
  "486": "word_486",
  "487": "word_487",
  "488": "word_488",
  "489": "word_489",
  "490": "word_490",
  "491": "word_491",
  "492": "word_492",
  "493": "word_493",
  "494": "word_494",
  "495": "word_495",
  "496": "word_496",
  "497": "word_497",
  "498": "word_498",
  "499": "word_499",
  "500": "word_500",
  "501": "word_501",
  "502": "word_502",
  "503": "word_503",
  "504": "word_504",
  "505": "word_505",
  "506": "word_506",
  "507": "word_507",
  "508": "word_508",
  "509": "word_509",
  "510": "word_510",
  "511": "word_511",
  "512": "word_512",
  "513": "word_513",
  "514": "word_514",
  "515": "word_515",
  "516": "word_516",
  "517": "word_517",
  "518": "word_518",
  "519": "word_519",
  "520": "word_520",
  "521": "word_521",
  "522": "word_522",
  "523": "word_523",
  "524": "word_524",
  "525": "word_525",
  "526": "word_526",
  "527": "word_527",
  "528": "word_528",
  "529": "word_529",
  "530": "word_530",
  "531": "word_531",
  "532": "word_532",
  "533": "word_533",
  "534": "word_534",
  "535": "word_535",
  "536": "word_536",
  "537": "word_537",
  "538": "word_538",
  "539": "word_539",
  "540": "word_540",
  "541": "word_541",
  "542": "word_542",
  "543": "word_543",
  "544": "word_544",
  "545": "word_545",
  "546": "word_546",
  "547": "word_547",
  "548": "word_548",
  "549": "word_549",
  "550": "word_550",
  "551": "word_551",
  "552": "word_552",
  "553": "word_553",
  "554": "word_554",
  "555": "word_555",
  "556": "word_556",
  "557": "word_557",
  "558": "word_558",
  "559": "word_559",
  "560": "word_560",
  "561": "word_561",
  "562": "word_562",
  "563": "word_563",
  "564": "word_564",
  "565": "word_565",
  "566": "word_566",
  "567": "word_567",
  "568": "word_568",
  "569": "word_569",
  "570": "word_570",
  "571": "word_571",
  "572": "word_572",
  "573": "word_573",
  "574": "word_574",
  "575": "word_575",
  "576": "word_576",
  "577": "word_577",
  "578": "word_578",
  "579": "word_579",
  "580": "word_580",
  "581": "word_581",
  "582": "word_582",
  "583": "word_583",
  "584": "word_584",
  "585": "word_585",
  "586": "word_586",
  "587": "word_587",
  "588": "word_588",
  "589": "word_589",
  "590": "word_590",
  "591": "word_591",
  "592": "word_592",
  "593": "word_593",
  "594": "word_594",
  "595": "word_595",
  "596": "word_596",
  "597": "word_597",
  "598": "word_598",
  "599": "word_599",
  "600": "word_600",
  "601": "word_601",
  "602": "word_602",
  "603": "word_603",
  "604": "word_604",
  "605": "word_605",
  "606": "word_606",
  "607": "word_607",
  "608": "word_608",
  "609": "word_609",
  "610": "word_610",
  "611": "word_611",
  "612": "word_612",
  "613": "word_613",
  "614": "word_614",
  "615": "word_615",
  "616": "word_616",
  "617": "word_617",
  "618": "word_618",
  "619": "word_619",
  "620": "word_620",
  "621": "word_621",
  "622": "word_622",
  "623": "word_623",
  "624": "word_624",
  "625": "word_625",
  "626": "word_626",
  "627": "word_627",
  "628": "word_628",
  "629": "word_629",
  "630": "word_630",
  "631": "word_631",
  "632": "word_632",
  "633": "word_633",
  "634": "word_634",
  "635": "word_635",
  "636": "word_636",
  "637": "word_637",
  "638": "word_638",
  "639": "word_639",
  "640": "word_640",
  "641": "word_641",
  "642": "word_642",
  "643": "word_643",
  "644": "word_644",
  "645": "word_645",
  "646": "word_646",
  "647": "word_647",
  "648": "word_648",
  "649": "word_649",
  "650": "word_650",
  "651": "word_651",
  "652": "word_652",
  "653": "word_653",
  "654": "word_654",
  "655": "word_655",
  "656": "word_656",
  "657": "word_657",
  "658": "word_658",
  "659": "word_659",
  "660": "word_660",
  "661": "word_661",
  "662": "word_662",
  "663": "word_663",
  "664": "word_664",
  "665": "word_665",
  "666": "word_666",
  "667": "word_667",
  "668": "word_668",
  "669": "word_669",
  "670": "word_670",
  "671": "word_671",
  "672": "word_672",
  "673": "word_673",
  "674": "word_674",
  "675": "word_675",
  "676": "word_676",
  "677": "word_677",
  "678": "word_678",
  "679": "word_679",
  "680": "word_680",
  "681": "word_681",
  "682": "word_682",
  "683": "word_683",
  "684": "word_684",
  "685": "word_685",
  "686": "word_686",
  "687": "word_687",
  "688": "word_688",
  "689": "word_689",
  "690": "word_690",
  "691": "word_691",
  "692": "word_692",
  "693": "word_693",
  "694": "word_694",
  "695": "word_695",
  "696": "word_696",
  "697": "word_697",
  "698": "word_698",
  "699": "word_699",
  "700": "word_700",
  "701": "word_701",
  "702": "word_702",
  "703": "word_703",
  "704": "word_704",
  "705": "word_705",
  "706": "word_706",
  "707": "word_707",
  "708": "word_708",
  "709": "word_709",
  "710": "word_710",
  "711": "word_711",
  "712": "word_712",
  "713": "word_713",
  "714": "word_714",
  "715": "word_715",
  "716": "word_716",
  "717": "word_717",
  "718": "word_718",
  "719": "word_719",
  "720": "word_720",
  "721": "word_721",
  "722": "word_722",
  "723": "word_723",
  "724": "word_724",
  "725": "word_725",
  "726": "word_726",
  "727": "word_727",
  "728": "word_728",
  "729": "word_729",
  "730": "word_730",
  "731": "word_731",
  "732": "word_732",
  "733": "word_733",
  "734": "word_734",
  "735": "word_735",
  "736": "word_736",
  "737": "word_737",
  "738": "word_738",
  "739": "word_739",
  "740": "word_740",
  "741": "word_741",
  "742": "word_742",
  "743": "word_743",
  "744": "word_744",
  "745": "word_745",
  "746": "word_746",
  "747": "word_747",
  "748": "word_748",
  "749": "word_749",
  "750": "word_750",
  "751": "word_751",
  "752": "word_752",
  "753": "word_753",
  "754": "word_754",
  "755": "word_755",
  "756": "word_756",
  "757": "word_757",
  "758": "word_758",
  "759": "word_759",
  "760": "word_760",
  "761": "word_761",
  "762": "word_762",
  "763": "word_763",
  "764": "word_764",
  "765": "word_765",
  "766": "word_766",
  "767": "word_767",
  "768": "word_768",
  "769": "word_769",
  "770": "word_770",
  "771": "word_771",
  "772": "word_772",
  "773": "word_773",
  "774": "word_774",
  "775": "word_775",
  "776": "word_776",
  "777": "word_777",
  "778": "word_778",
  "779": "word_779",
  "780": "word_780",
  "781": "word_781",
  "782": "word_782",
  "783": "word_783",
  "784": "word_784",
  "785": "word_785",
  "786": "word_786",
  "787": "word_787",
  "788": "word_788",
  "789": "word_789",
  "790": "word_790",
  "791": "word_791",
  "792": "word_792",
  "793": "word_793",
  "794": "word_794",
  "795": "word_795",
  "796": "word_796",
  "797": "word_797",
  "798": "word_798",
  "799": "word_799",
  "800": "word_800",
  "801": "word_801",
  "802": "word_802",
  "803": "word_803",
  "804": "word_804",
  "805": "word_805",
  "806": "word_806",
  "807": "word_807",
  "808": "word_808",
  "809": "word_809",
  "810": "word_810",
  "811": "word_811",
  "812": "word_812",
  "813": "word_813",
  "814": "word_814",
  "815": "word_815",
  "816": "word_816",
  "817": "word_817",
  "818": "word_818",
  "819": "word_819",
  "820": "word_820",
  "821": "word_821",
  "822": "word_822",
  "823": "word_823",
  "824": "word_824",
  "825": "word_825",
  "826": "word_826",
  "827": "word_827",
  "828": "word_828",
  "829": "word_829",
  "830": "word_830",
  "831": "word_831",
  "832": "word_832",
  "833": "word_833",
  "834": "word_834",
  "835": "word_835",
  "836": "word_836",
  "837": "word_837",
  "838": "word_838",
  "839": "word_839",
  "840": "word_840",
  "841": "word_841",
  "842": "word_842",
  "843": "word_843",
  "844": "word_844",
  "845": "word_845",
  "846": "word_846",
  "847": "word_847",
  "848": "word_848",
  "849": "word_849",
  "850": "word_850",
  "851": "word_851",
  "852": "word_852",
  "853": "word_853",
  "854": "word_854",
  "855": "word_855",
  "856": "word_856",
  "857": "word_857",
  "858": "word_858",
  "859": "word_859",
  "860": "word_860",
  "861": "word_861",
  "862": "word_862",
  "863": "word_863",
  "864": "word_864",
  "865": "word_865",
  "866": "word_866",
  "867": "word_867",
  "868": "word_868",
  "869": "word_869",
  "870": "word_870",
  "871": "word_871",
  "872": "word_872",
  "873": "word_873",
  "874": "word_874",
  "875": "word_875",
  "876": "word_876",
  "877": "word_877",
  "878": "word_878",
  "879": "word_879",
  "880": "word_880",
  "881": "word_881",
  "882": "word_882",
  "883": "word_883",
  "884": "word_884",
  "885": "word_885",
  "886": "word_886",
  "887": "word_887",
  "888": "word_888",
  "889": "word_889",
  "890": "word_890",
  "891": "word_891",
  "892": "word_892",
  "893": "word_893",
  "894": "word_894",
  "895": "word_895",
  "896": "word_896",
  "897": "word_897",
  "898": "word_898",
  "899": "word_899",
  "900": "word_900",
  "901": "word_901",
  "902": "word_902",
  "903": "word_903",
  "904": "word_904",
  "905": "word_905",
  "906": "word_906",
  "907": "word_907",
  "908": "word_908",
  "909": "word_909",
  "910": "word_910",
  "911": "word_911",
  "912": "word_912",
  "913": "word_913",
  "914": "word_914",
  "915": "word_915",
  "916": "word_916",
  "917": "word_917",
  "918": "word_918",
  "919": "word_919",
  "920": "word_920",
  "921": "word_921",
  "922": "word_922",
  "923": "word_923",
  "924": "word_924",
  "925": "word_925",
  "926": "word_926",
  "927": "word_927",
  "928": "word_928",
  "929": "word_929",
  "930": "word_930",
  "931": "word_931",
  "932": "word_932",
  "933": "word_933",
  "934": "word_934",
  "935": "word_935",
  "936": "word_936",
  "937": "word_937",
  "938": "word_938",
  "939": "word_939",
  "940": "word_940",
  "941": "word_941",
  "942": "word_942",
  "943": "word_943",
  "944": "word_944",
  "945": "word_945",
  "946": "word_946",
  "947": "word_947",
  "948": "word_948",
  "949": "word_949",
  "950": "word_950",
  "951": "word_951",
  "952": "word_952",
  "953": "word_953",
  "954": "word_954",
  "955": "word_955",
  "956": "word_956",
  "957": "word_957",
  "958": "word_958",
  "959": "word_959",
  "960": "word_960",
  "961": "word_961",
  "962": "word_962",
  "963": "word_963",
  "964": "word_964",
  "965": "word_965",
  "966": "word_966",
  "967": "word_967",
  "968": "word_968",
  "969": "word_969",
  "970": "word_970",
  "971": "word_971",
  "972": "word_972",
  "973": "word_973",
  "974": "word_974",
  "975": "word_975",
  "976": "word_976",
  "977": "word_977",
  "978": "word_978",
  "979": "word_979",
  "980": "word_980",
  "981": "word_981",
  "982": "word_982",
  "983": "word_983",
  "984": "word_984",
  "985": "word_985",
  "986": "word_986",
  "987": "word_987",
  "988": "word_988",
  "989": "word_989",
  "990": "word_990",
  "991": "word_991",
  "992": "word_992",
  "993": "word_993",
  "994": "word_994",
  "995": "word_995",
  "996": "word_996",
  "997": "word_997",
  "998": "word_998",
  "999": "word_999",
  "1000": "word_1000",
  "1001": "word_1001",
  "1002": "word_1002",
  "1003": "word_1003",
  "1004": "word_1004",
  "1005": "word_1005",
  "1006": "word_1006",
  "1007": "word_1007",
  "1008": "word_1008",
  "1009": "word_1009",
  "1010": "word_1010",
  "1011": "word_1011",
  "1012": "word_1012",
  "1013": "word_1013",
  "1014": "word_1014",
  "1015": "word_1015",
  "1016": "word_1016",
  "1017": "word_1017",
  "1018": "word_1018",
  "1019": "word_1019",
  "1020": "word_1020",
  "1021": "word_1021",
  "1022": "word_1022",
  "1023": "word_1023",
  "1024": "word_1024",
  "1025": "word_1025",
  "1026": "word_1026",
  "1027": "word_1027",
  "1028": "word_1028",
  "1029": "word_1029",
  "1030": "word_1030",
  "1031": "word_1031",
  "1032": "word_1032",
  "1033": "word_1033",
  "1034": "word_1034",
  "1035": "word_1035",
  "1036": "word_1036",
  "1037": "word_1037",
  "1038": "word_1038",
  "1039": "word_1039",
  "1040": "word_1040",
  "1041": "word_1041",
  "1042": "word_1042",
  "1043": "word_1043",
  "1044": "word_1044",
  "1045": "word_1045",
  "1046": "word_1046",
  "1047": "word_1047",
  "1048": "word_1048",
  "1049": "word_1049",
  "1050": "word_1050",
  "1051": "word_1051",
  "1052": "word_1052",
  "1053": "word_1053",
  "1054": "word_1054",
  "1055": "word_1055",
  "1056": "word_1056",
  "1057": "word_1057",
  "1058": "word_1058",
  "1059": "word_1059",
  "1060": "word_1060",
  "1061": "word_1061",
  "1062": "word_1062",
  "1063": "word_1063",
  "1064": "word_1064",
  "1065": "word_1065",
  "1066": "word_1066",
  "1067": "word_1067",
  "1068": "word_1068",
  "1069": "word_1069",
  "1070": "word_1070",
  "1071": "word_1071",
  "1072": "word_1072",
  "1073": "word_1073",
  "1074": "word_1074",
  "1075": "word_1075",
  "1076": "word_1076",
  "1077": "word_1077",
  "1078": "word_1078",
  "1079": "word_1079",
  "1080": "word_1080",
  "1081": "word_1081",
  "1082": "word_1082",
  "1083": "word_1083",
  "1084": "word_1084",
  "1085": "word_1085",
  "1086": "word_1086",
  "1087": "word_1087",
  "1088": "word_1088",
  "1089": "word_1089",
  "1090": "word_1090",
  "1091": "word_1091",
  "1092": "word_1092",
  "1093": "word_1093",
  "1094": "word_1094",
  "1095": "word_1095",
  "1096": "word_1096",
  "1097": "word_1097",
  "1098": "word_1098",
  "1099": "word_1099",
  "1100": "word_1100",
  "1101": "word_1101",
  "1102": "word_1102",
  "1103": "word_1103",
  "1104": "word_1104",
  "1105": "word_1105",
  "1106": "word_1106",
  "1107": "word_1107",
  "1108": "word_1108",
  "1109": "word_1109",
  "1110": "word_1110",
  "1111": "word_1111",
  "1112": "word_1112",
  "1113": "word_1113",
  "1114": "word_1114",
  "1115": "word_1115",
  "1116": "word_1116",
  "1117": "word_1117",
  "1118": "word_1118",
  "1119": "word_1119",
  "1120": "word_1120",
  "1121": "word_1121",
  "1122": "word_1122",
  "1123": "word_1123",
  "1124": "word_1124",
  "1125": "word_1125",
  "1126": "word_1126",
  "1127": "word_1127",
  "1128": "word_1128",
  "1129": "word_1129",
  "1130": "word_1130",
  "1131": "word_1131",
  "1132": "word_1132",
  "1133": "word_1133",
  "1134": "word_1134",
  "1135": "word_1135",
  "1136": "word_1136",
  "1137": "word_1137",
  "1138": "word_1138",
  "1139": "word_1139",
  "1140": "word_1140",
  "1141": "word_1141",
  "1142": "word_1142",
  "1143": "word_1143",
  "1144": "word_1144",
  "1145": "word_1145",
  "1146": "word_1146",
  "1147": "word_1147",
  "1148": "word_1148",
  "1149": "word_1149",
  "1150": "word_1150",
  "1151": "word_1151",
  "1152": "word_1152",
  "1153": "word_1153",
  "1154": "word_1154",
  "1155": "word_1155",
  "1156": "word_1156",
  "1157": "word_1157",
  "1158": "word_1158",
  "1159": "word_1159",
  "1160": "word_1160",
  "1161": "word_1161",
  "1162": "word_1162",
  "1163": "word_1163",
  "1164": "word_1164",
  "1165": "word_1165",
  "1166": "word_1166",
  "1167": "word_1167",
  "1168": "word_1168",
  "1169": "word_1169",
  "1170": "word_1170",
  "1171": "word_1171",
  "1172": "word_1172",
  "1173": "word_1173",
  "1174": "word_1174",
  "1175": "word_1175",
  "1176": "word_1176",
  "1177": "word_1177",
  "1178": "word_1178",
  "1179": "word_1179",
  "1180": "word_1180",
  "1181": "word_1181",
  "1182": "word_1182",
  "1183": "word_1183",
  "1184": "word_1184",
  "1185": "word_1185",
  "1186": "word_1186",
  "1187": "word_1187",
  "1188": "word_1188",
  "1189": "word_1189",
  "1190": "word_1190",
  "1191": "word_1191",
  "1192": "word_1192",
  "1193": "word_1193",
  "1194": "word_1194",
  "1195": "word_1195",
  "1196": "word_1196",
  "1197": "word_1197",
  "1198": "word_1198",
  "1199": "word_1199",
  "1200": "word_1200",
  "1201": "word_1201",
  "1202": "word_1202",
  "1203": "word_1203",
  "1204": "word_1204",
  "1205": "word_1205",
  "1206": "word_1206",
  "1207": "word_1207",
  "1208": "word_1208",
  "1209": "word_1209",
  "1210": "word_1210",
  "1211": "word_1211",
  "1212": "word_1212",
  "1213": "word_1213",
  "1214": "word_1214",
  "1215": "word_1215",
  "1216": "word_1216",
  "1217": "word_1217",
  "1218": "word_1218",
  "1219": "word_1219",
  "1220": "word_1220",
  "1221": "word_1221",
  "1222": "word_1222",
  "1223": "word_1223",
  "1224": "word_1224",
  "1225": "word_1225",
  "1226": "word_1226",
  "1227": "word_1227",
  "1228": "word_1228",
  "1229": "word_1229",
  "1230": "word_1230",
  "1231": "word_1231",
  "1232": "word_1232",
  "1233": "word_1233",
  "1234": "word_1234",
  "1235": "word_1235",
  "1236": "word_1236",
  "1237": "word_1237",
  "1238": "word_1238",
  "1239": "word_1239",
  "1240": "word_1240",
  "1241": "word_1241",
  "1242": "word_1242",
  "1243": "word_1243",
  "1244": "word_1244",
  "1245": "word_1245",
  "1246": "word_1246",
  "1247": "word_1247",
  "1248": "word_1248",
  "1249": "word_1249",
  "1250": "word_1250",
  "1251": "word_1251",
  "1252": "word_1252",
  "1253": "word_1253",
  "1254": "word_1254",
  "1255": "word_1255",
  "1256": "word_1256",
  "1257": "word_1257",
  "1258": "word_1258",
  "1259": "word_1259",
  "1260": "word_1260",
  "1261": "word_1261",
  "1262": "word_1262",
  "1263": "word_1263",
  "1264": "word_1264",
  "1265": "word_1265",
  "1266": "word_1266",
  "1267": "word_1267",
  "1268": "word_1268",
  "1269": "word_1269",
  "1270": "word_1270",
  "1271": "word_1271",
  "1272": "word_1272",
  "1273": "word_1273",
  "1274": "word_1274",
  "1275": "word_1275",
  "1276": "word_1276",
  "1277": "word_1277",
  "1278": "word_1278",
  "1279": "word_1279",
  "1280": "word_1280",
  "1281": "word_1281",
  "1282": "word_1282",
  "1283": "word_1283",
  "1284": "word_1284",
  "1285": "word_1285",
  "1286": "word_1286",
  "1287": "word_1287",
  "1288": "word_1288",
  "1289": "word_1289",
  "1290": "word_1290",
  "1291": "word_1291",
  "1292": "word_1292",
  "1293": "word_1293",
  "1294": "word_1294",
  "1295": "word_1295",
  "1296": "word_1296",
  "1297": "word_1297",
  "1298": "word_1298",
  "1299": "word_1299",
  "1300": "word_1300",
  "1301": "word_1301",
  "1302": "word_1302",
  "1303": "word_1303",
  "1304": "word_1304",
  "1305": "word_1305",
  "1306": "word_1306",
  "1307": "word_1307",
  "1308": "word_1308",
  "1309": "word_1309",
  "1310": "word_1310",
  "1311": "word_1311",
  "1312": "word_1312",
  "1313": "word_1313",
  "1314": "word_1314",
  "1315": "word_1315",
  "1316": "word_1316",
  "1317": "word_1317",
  "1318": "word_1318",
  "1319": "word_1319",
  "1320": "word_1320",
  "1321": "word_1321",
  "1322": "word_1322",
  "1323": "word_1323",
  "1324": "word_1324",
  "1325": "word_1325",
  "1326": "word_1326",
  "1327": "word_1327",
  "1328": "word_1328",
  "1329": "word_1329",
  "1330": "word_1330",
  "1331": "word_1331",
  "1332": "word_1332",
  "1333": "word_1333",
  "1334": "word_1334",
  "1335": "word_1335",
  "1336": "word_1336",
  "1337": "word_1337",
  "1338": "word_1338",
  "1339": "word_1339",
  "1340": "word_1340",
  "1341": "word_1341",
  "1342": "word_1342",
  "1343": "word_1343",
  "1344": "word_1344",
  "1345": "word_1345",
  "1346": "word_1346",
  "1347": "word_1347",
  "1348": "word_1348",
  "1349": "word_1349",
  "1350": "word_1350",
  "1351": "word_1351",
  "1352": "word_1352",
  "1353": "word_1353",
  "1354": "word_1354",
  "1355": "word_1355",
  "1356": "word_1356",
  "1357": "word_1357",
  "1358": "word_1358",
  "1359": "word_1359",
  "1360": "word_1360",
  "1361": "word_1361",
  "1362": "word_1362",
  "1363": "word_1363",
  "1364": "word_1364",
  "1365": "word_1365",
  "1366": "word_1366",
  "1367": "word_1367",
  "1368": "word_1368",
  "1369": "word_1369",
  "1370": "word_1370",
  "1371": "word_1371",
  "1372": "word_1372",
  "1373": "word_1373",
  "1374": "word_1374",
  "1375": "word_1375",
  "1376": "word_1376",
  "1377": "word_1377",
  "1378": "word_1378",
  "1379": "word_1379",
  "1380": "word_1380",
  "1381": "word_1381",
  "1382": "word_1382",
  "1383": "word_1383",
  "1384": "word_1384",
  "1385": "word_1385",
  "1386": "word_1386",
  "1387": "word_1387",
  "1388": "word_1388",
  "1389": "word_1389",
  "1390": "word_1390",
  "1391": "word_1391",
  "1392": "word_1392",
  "1393": "word_1393",
  "1394": "word_1394",
  "1395": "word_1395",
  "1396": "word_1396",
  "1397": "word_1397",
  "1398": "word_1398",
  "1399": "word_1399",
  "1400": "word_1400",
  "1401": "word_1401",
  "1402": "word_1402",
  "1403": "word_1403",
  "1404": "word_1404",
  "1405": "word_1405",
  "1406": "word_1406",
  "1407": "word_1407",
  "1408": "word_1408",
  "1409": "word_1409",
  "1410": "word_1410",
  "1411": "word_1411",
  "1412": "word_1412",
  "1413": "word_1413",
  "1414": "word_1414",
  "1415": "word_1415",
  "1416": "word_1416",
  "1417": "word_1417",
  "1418": "word_1418",
  "1419": "word_1419",
  "1420": "word_1420",
  "1421": "word_1421",
  "1422": "word_1422",
  "1423": "word_1423",
  "1424": "word_1424",
  "1425": "word_1425",
  "1426": "word_1426",
  "1427": "word_1427",
  "1428": "word_1428",
  "1429": "word_1429",
  "1430": "word_1430",
  "1431": "word_1431",
  "1432": "word_1432",
  "1433": "word_1433",
  "1434": "word_1434",
  "1435": "word_1435",
  "1436": "word_1436",
  "1437": "word_1437",
  "1438": "word_1438",
  "1439": "word_1439",
  "1440": "word_1440",
  "1441": "word_1441",
  "1442": "word_1442",
  "1443": "word_1443",
  "1444": "word_1444",
  "1445": "word_1445",
  "1446": "word_1446",
  "1447": "word_1447",
  "1448": "word_1448",
  "1449": "word_1449",
  "1450": "word_1450",
  "1451": "word_1451",
  "1452": "word_1452",
  "1453": "word_1453",
  "1454": "word_1454",
  "1455": "word_1455",
  "1456": "word_1456",
  "1457": "word_1457",
  "1458": "word_1458",
  "1459": "word_1459",
  "1460": "word_1460",
  "1461": "word_1461",
  "1462": "word_1462",
  "1463": "word_1463",
  "1464": "word_1464",
  "1465": "word_1465",
  "1466": "word_1466",
  "1467": "word_1467",
  "1468": "word_1468",
  "1469": "word_1469",
  "1470": "word_1470",
  "1471": "word_1471",
  "1472": "word_1472",
  "1473": "word_1473",
  "1474": "word_1474",
  "1475": "word_1475",
  "1476": "word_1476",
  "1477": "word_1477",
  "1478": "word_1478",
  "1479": "word_1479",
  "1480": "word_1480",
  "1481": "word_1481",
  "1482": "word_1482",
  "1483": "word_1483",
  "1484": "word_1484",
  "1485": "word_1485",
  "1486": "word_1486",
  "1487": "word_1487",
  "1488": "word_1488",
  "1489": "word_1489",
  "1490": "word_1490",
  "1491": "word_1491",
  "1492": "word_1492",
  "1493": "word_1493",
  "1494": "word_1494",
  "1495": "word_1495",
  "1496": "word_1496",
  "1497": "word_1497",
  "1498": "word_1498",
  "1499": "word_1499",
  "1500": "word_1500",
  "1501": "word_1501",
  "1502": "word_1502",
  "1503": "word_1503",
  "1504": "word_1504",
  "1505": "word_1505",
  "1506": "word_1506",
  "1507": "word_1507",
  "1508": "word_1508",
  "1509": "word_1509",
  "1510": "word_1510",
  "1511": "word_1511",
  "1512": "word_1512",
  "1513": "word_1513",
  "1514": "word_1514",
  "1515": "word_1515",
  "1516": "word_1516",
  "1517": "word_1517",
  "1518": "word_1518",
  "1519": "word_1519",
  "1520": "word_1520",
  "1521": "word_1521",
  "1522": "word_1522",
  "1523": "word_1523",
  "1524": "word_1524",
  "1525": "word_1525",
  "1526": "word_1526",
  "1527": "word_1527",
  "1528": "word_1528",
  "1529": "word_1529",
  "1530": "word_1530",
  "1531": "word_1531",
  "1532": "word_1532",
  "1533": "word_1533",
  "1534": "word_1534",
  "1535": "word_1535",
  "1536": "word_1536",
  "1537": "word_1537",
  "1538": "word_1538",
  "1539": "word_1539",
  "1540": "word_1540",
  "1541": "word_1541",
  "1542": "word_1542",
  "1543": "word_1543",
  "1544": "word_1544",
  "1545": "word_1545",
  "1546": "word_1546",
  "1547": "word_1547",
  "1548": "word_1548",
  "1549": "word_1549",
  "1550": "word_1550",
  "1551": "word_1551",
  "1552": "word_1552",
  "1553": "word_1553",
  "1554": "word_1554",
  "1555": "word_1555",
  "1556": "word_1556",
  "1557": "word_1557",
  "1558": "word_1558",
  "1559": "word_1559",
  "1560": "word_1560",
  "1561": "word_1561",
  "1562": "word_1562",
  "1563": "word_1563",
  "1564": "word_1564",
  "1565": "word_1565",
  "1566": "word_1566",
  "1567": "word_1567",
  "1568": "word_1568",
  "1569": "word_1569",
  "1570": "word_1570",
  "1571": "word_1571",
  "1572": "word_1572",
  "1573": "word_1573",
  "1574": "word_1574",
  "1575": "word_1575",
  "1576": "word_1576",
  "1577": "word_1577",
  "1578": "word_1578",
  "1579": "word_1579",
  "1580": "word_1580",
  "1581": "word_1581",
  "1582": "word_1582",
  "1583": "word_1583",
  "1584": "word_1584",
  "1585": "word_1585",
  "1586": "word_1586",
  "1587": "word_1587",
  "1588": "word_1588",
  "1589": "word_1589",
  "1590": "word_1590",
  "1591": "word_1591",
  "1592": "word_1592",
  "1593": "word_1593",
  "1594": "word_1594",
  "1595": "word_1595",
  "1596": "word_1596",
  "1597": "word_1597",
  "1598": "word_1598",
  "1599": "word_1599",
  "1600": "word_1600",
  "1601": "word_1601",
  "1602": "word_1602",
  "1603": "word_1603",
  "1604": "word_1604",
  "1605": "word_1605",
  "1606": "word_1606",
  "1607": "word_1607",
  "1608": "word_1608",
  "1609": "word_1609",
  "1610": "word_1610",
  "1611": "word_1611",
  "1612": "word_1612",
  "1613": "word_1613",
  "1614": "word_1614",
  "1615": "word_1615",
  "1616": "word_1616",
  "1617": "word_1617",
  "1618": "word_1618",
  "1619": "word_1619",
  "1620": "word_1620",
  "1621": "word_1621",
  "1622": "word_1622",
  "1623": "word_1623",
  "1624": "word_1624",
  "1625": "word_1625",
  "1626": "word_1626",
  "1627": "word_1627",
  "1628": "word_1628",
  "1629": "word_1629",
  "1630": "word_1630",
  "1631": "word_1631",
  "1632": "word_1632",
  "1633": "word_1633",
  "1634": "word_1634",
  "1635": "word_1635",
  "1636": "word_1636",
  "1637": "word_1637",
  "1638": "word_1638",
  "1639": "word_1639",
  "1640": "word_1640",
  "1641": "word_1641",
  "1642": "word_1642",
  "1643": "word_1643",
  "1644": "word_1644",
  "1645": "word_1645",
  "1646": "word_1646",
  "1647": "word_1647",
  "1648": "word_1648",
  "1649": "word_1649",
  "1650": "word_1650",
  "1651": "word_1651",
  "1652": "word_1652",
  "1653": "word_1653",
  "1654": "word_1654",
  "1655": "word_1655",
  "1656": "word_1656",
  "1657": "word_1657",
  "1658": "word_1658",
  "1659": "word_1659",
  "1660": "word_1660",
  "1661": "word_1661",
  "1662": "word_1662",
  "1663": "word_1663",
  "1664": "word_1664",
  "1665": "word_1665",
  "1666": "word_1666",
  "1667": "word_1667",
  "1668": "word_1668",
  "1669": "word_1669",
  "1670": "word_1670",
  "1671": "word_1671",
  "1672": "word_1672",
  "1673": "word_1673",
  "1674": "word_1674",
  "1675": "word_1675",
  "1676": "word_1676",
  "1677": "word_1677",
  "1678": "word_1678",
  "1679": "word_1679",
  "1680": "word_1680",
  "1681": "word_1681",
  "1682": "word_1682",
  "1683": "word_1683",
  "1684": "word_1684",
  "1685": "word_1685",
  "1686": "word_1686",
  "1687": "word_1687",
  "1688": "word_1688",
  "1689": "word_1689",
  "1690": "word_1690",
  "1691": "word_1691",
  "1692": "word_1692",
  "1693": "word_1693",
  "1694": "word_1694",
  "1695": "word_1695",
  "1696": "word_1696",
  "1697": "word_1697",
  "1698": "word_1698",
  "1699": "word_1699",
  "1700": "word_1700",
  "1701": "word_1701",
  "1702": "word_1702",
  "1703": "word_1703",
  "1704": "word_1704",
  "1705": "word_1705",
  "1706": "word_1706",
  "1707": "word_1707",
  "1708": "word_1708",
  "1709": "word_1709",
  "1710": "word_1710",
  "1711": "word_1711",
  "1712": "word_1712",
  "1713": "word_1713",
  "1714": "word_1714",
  "1715": "word_1715",
  "1716": "word_1716",
  "1717": "word_1717",
  "1718": "word_1718",
  "1719": "word_1719",
  "1720": "word_1720",
  "1721": "word_1721",
  "1722": "word_1722",
  "1723": "word_1723",
  "1724": "word_1724",
  "1725": "word_1725",
  "1726": "word_1726",
  "1727": "word_1727",
  "1728": "word_1728",
  "1729": "word_1729",
  "1730": "word_1730",
  "1731": "word_1731",
  "1732": "word_1732",
  "1733": "word_1733",
  "1734": "word_1734",
  "1735": "word_1735",
  "1736": "word_1736",
  "1737": "word_1737",
  "1738": "word_1738",
  "1739": "word_1739",
  "1740": "word_1740",
  "1741": "word_1741",
  "1742": "word_1742",
  "1743": "word_1743",
  "1744": "word_1744",
  "1745": "word_1745",
  "1746": "word_1746",
  "1747": "word_1747",
  "1748": "word_1748",
  "1749": "word_1749",
  "1750": "word_1750",
  "1751": "word_1751",
  "1752": "word_1752",
  "1753": "word_1753",
  "1754": "word_1754",
  "1755": "word_1755",
  "1756": "word_1756",
  "1757": "word_1757",
  "1758": "word_1758",
  "1759": "word_1759",
  "1760": "word_1760",
  "1761": "word_1761",
  "1762": "word_1762",
  "1763": "word_1763",
  "1764": "word_1764",
  "1765": "word_1765",
  "1766": "word_1766",
  "1767": "word_1767",
  "1768": "word_1768",
  "1769": "word_1769",
  "1770": "word_1770",
  "1771": "word_1771",
  "1772": "word_1772",
  "1773": "word_1773",
  "1774": "word_1774",
  "1775": "word_1775",
  "1776": "word_1776",
  "1777": "word_1777",
  "1778": "word_1778",
  "1779": "word_1779",
  "1780": "word_1780",
  "1781": "word_1781",
  "1782": "word_1782",
  "1783": "word_1783",
  "1784": "word_1784",
  "1785": "word_1785",
  "1786": "word_1786",
  "1787": "word_1787",
  "1788": "word_1788",
  "1789": "word_1789",
  "1790": "word_1790",
  "1791": "word_1791",
  "1792": "word_1792",
  "1793": "word_1793",
  "1794": "word_1794",
  "1795": "word_1795",
  "1796": "word_1796",
  "1797": "word_1797",
  "1798": "word_1798",
  "1799": "word_1799",
  "1800": "word_1800",
  "1801": "word_1801",
  "1802": "word_1802",
  "1803": "word_1803",
  "1804": "word_1804",
  "1805": "word_1805",
  "1806": "word_1806",
  "1807": "word_1807",
  "1808": "word_1808",
  "1809": "word_1809",
  "1810": "word_1810",
  "1811": "word_1811",
  "1812": "word_1812",
  "1813": "word_1813",
  "1814": "word_1814",
  "1815": "word_1815",
  "1816": "word_1816",
  "1817": "word_1817",
  "1818": "word_1818",
  "1819": "word_1819",
  "1820": "word_1820",
  "1821": "word_1821",
  "1822": "word_1822",
  "1823": "word_1823",
  "1824": "word_1824",
  "1825": "word_1825",
  "1826": "word_1826",
  "1827": "word_1827",
  "1828": "word_1828",
  "1829": "word_1829",
  "1830": "word_1830",
  "1831": "word_1831",
  "1832": "word_1832",
  "1833": "word_1833",
  "1834": "word_1834",
  "1835": "word_1835",
  "1836": "word_1836",
  "1837": "word_1837",
  "1838": "word_1838",
  "1839": "word_1839",
  "1840": "word_1840",
  "1841": "word_1841",
  "1842": "word_1842",
  "1843": "word_1843",
  "1844": "word_1844",
  "1845": "word_1845",
  "1846": "word_1846",
  "1847": "word_1847",
  "1848": "word_1848",
  "1849": "word_1849",
  "1850": "word_1850",
  "1851": "word_1851",
  "1852": "word_1852",
  "1853": "word_1853",
  "1854": "word_1854",
  "1855": "word_1855",
  "1856": "word_1856",
  "1857": "word_1857",
  "1858": "word_1858",
  "1859": "word_1859",
  "1860": "word_1860",
  "1861": "word_1861",
  "1862": "word_1862",
  "1863": "word_1863",
  "1864": "word_1864",
  "1865": "word_1865",
  "1866": "word_1866",
  "1867": "word_1867",
  "1868": "word_1868",
  "1869": "word_1869",
  "1870": "word_1870",
  "1871": "word_1871",
  "1872": "word_1872",
  "1873": "word_1873",
  "1874": "word_1874",
  "1875": "word_1875",
  "1876": "word_1876",
  "1877": "word_1877",
  "1878": "word_1878",
  "1879": "word_1879",
  "1880": "word_1880",
  "1881": "word_1881",
  "1882": "word_1882",
  "1883": "word_1883",
  "1884": "word_1884",
  "1885": "word_1885",
  "1886": "word_1886",
  "1887": "word_1887",
  "1888": "word_1888",
  "1889": "word_1889",
  "1890": "word_1890",
  "1891": "word_1891",
  "1892": "word_1892",
  "1893": "word_1893",
  "1894": "word_1894",
  "1895": "word_1895",
  "1896": "word_1896",
  "1897": "word_1897",
  "1898": "word_1898",
  "1899": "word_1899",
  "1900": "word_1900",
  "1901": "word_1901",
  "1902": "word_1902",
  "1903": "word_1903",
  "1904": "word_1904",
  "1905": "word_1905",
  "1906": "word_1906",
  "1907": "word_1907",
  "1908": "word_1908",
  "1909": "word_1909",
  "1910": "word_1910",
  "1911": "word_1911",
  "1912": "word_1912",
  "1913": "word_1913",
  "1914": "word_1914",
  "1915": "word_1915",
  "1916": "word_1916",
  "1917": "word_1917",
  "1918": "word_1918",
  "1919": "word_1919",
  "1920": "word_1920",
  "1921": "word_1921",
  "1922": "word_1922",
  "1923": "word_1923",
  "1924": "word_1924",
  "1925": "word_1925",
  "1926": "word_1926",
  "1927": "word_1927",
  "1928": "word_1928",
  "1929": "word_1929",
  "1930": "word_1930",
  "1931": "word_1931",
  "1932": "word_1932",
  "1933": "word_1933",
  "1934": "word_1934",
  "1935": "word_1935",
  "1936": "word_1936",
  "1937": "word_1937",
  "1938": "word_1938",
  "1939": "word_1939",
  "1940": "word_1940",
  "1941": "word_1941",
  "1942": "word_1942",
  "1943": "word_1943",
  "1944": "word_1944",
  "1945": "word_1945",
  "1946": "word_1946",
  "1947": "word_1947",
  "1948": "word_1948",
  "1949": "word_1949",
  "1950": "word_1950",
  "1951": "word_1951",
  "1952": "word_1952",
  "1953": "word_1953",
  "1954": "word_1954",
  "1955": "word_1955",
  "1956": "word_1956",
  "1957": "word_1957",
  "1958": "word_1958",
  "1959": "word_1959",
  "1960": "word_1960",
  "1961": "word_1961",
  "1962": "word_1962",
  "1963": "word_1963",
  "1964": "word_1964",
  "1965": "word_1965",
  "1966": "word_1966",
  "1967": "word_1967",
  "1968": "word_1968",
  "1969": "word_1969",
  "1970": "word_1970",
  "1971": "word_1971",
  "1972": "word_1972",
  "1973": "word_1973",
  "1974": "word_1974",
  "1975": "word_1975",
  "1976": "word_1976",
  "1977": "word_1977",
  "1978": "word_1978",
  "1979": "word_1979",
  "1980": "word_1980",
  "1981": "word_1981",
  "1982": "word_1982",
  "1983": "word_1983",
  "1984": "word_1984",
  "1985": "word_1985",
  "1986": "word_1986",
  "1987": "word_1987",
  "1988": "word_1988",
  "1989": "word_1989",
  "1990": "word_1990",
  "1991": "word_1991",
  "1992": "word_1992",
  "1993": "word_1993",
  "1994": "word_1994",
  "1995": "word_1995",
  "1996": "word_1996",
  "1997": "word_1997",
  "1998": "word_1998",
  "1999": "word_1999",
  "2000": "word_2000",
  "2001": "word_2001",
  "2002": "word_2002",
  "2003": "word_2003",
  "2004": "word_2004",
  "2005": "word_2005",
  "2006": "word_2006",
  "2007": "word_2007",
  "2008": "word_2008",
  "2009": "word_2009",
  "2010": "word_2010",
  "2011": "word_2011",
  "2012": "word_2012",
  "2013": "word_2013",
  "2014": "word_2014",
  "2015": "word_2015",
  "2016": "word_2016",
  "2017": "word_2017",
  "2018": "word_2018",
  "2019": "word_2019",
  "2020": "word_2020",
  "2021": "word_2021",
  "2022": "word_2022",
  "2023": "word_2023",
  "2024": "word_2024",
  "2025": "word_2025",
  "2026": "word_2026",
  "2027": "word_2027",
  "2028": "word_2028",
  "2029": "word_2029",
  "2030": "word_2030",
  "2031": "word_2031",
  "2032": "word_2032",
  "2033": "word_2033",
  "2034": "word_2034",
  "2035": "word_2035",
  "2036": "word_2036",
  "2037": "word_2037",
  "2038": "word_2038",
  "2039": "word_2039",
  "2040": "word_2040",
  "2041": "word_2041",
  "2042": "word_2042",
  "2043": "word_2043",
  "2044": "word_2044",
  "2045": "word_2045",
  "2046": "word_2046",
  "2047": "word_2047",
  "2048": "word_2048",
  "2049": "word_2049",
  "2050": "word_2050",
  "2051": "word_2051",
  "2052": "word_2052",
  "2053": "word_2053",
  "2054": "word_2054",
  "2055": "word_2055",
  "2056": "word_2056",
  "2057": "word_2057",
  "2058": "word_2058",
  "2059": "word_2059",
  "2060": "word_2060",
  "2061": "word_2061",
  "2062": "word_2062",
  "2063": "word_2063",
  "2064": "word_2064",
  "2065": "word_2065",
  "2066": "word_2066",
  "2067": "word_2067",
  "2068": "word_2068",
  "2069": "word_2069",
  "2070": "word_2070",
  "2071": "word_2071",
  "2072": "word_2072",
  "2073": "word_2073",
  "2074": "word_2074",
  "2075": "word_2075",
  "2076": "word_2076",
  "2077": "word_2077",
  "2078": "word_2078",
  "2079": "word_2079",
  "2080": "word_2080",
  "2081": "word_2081",
  "2082": "word_2082",
  "2083": "word_2083",
  "2084": "word_2084",
  "2085": "word_2085",
  "2086": "word_2086",
  "2087": "word_2087",
  "2088": "word_2088",
  "2089": "word_2089",
  "2090": "word_2090",
  "2091": "word_2091",
  "2092": "word_2092",
  "2093": "word_2093",
  "2094": "word_2094",
  "2095": "word_2095",
  "2096": "word_2096",
  "2097": "word_2097",
  "2098": "word_2098",
  "2099": "word_2099",
  "2100": "word_2100",
  "2101": "word_2101",
  "2102": "word_2102",
  "2103": "word_2103",
  "2104": "word_2104",
  "2105": "word_2105",
  "2106": "word_2106",
  "2107": "word_2107",
  "2108": "word_2108",
  "2109": "word_2109",
  "2110": "word_2110",
  "2111": "word_2111",
  "2112": "word_2112",
  "2113": "word_2113",
  "2114": "word_2114",
  "2115": "word_2115",
  "2116": "word_2116",
  "2117": "word_2117",
  "2118": "word_2118",
  "2119": "word_2119",
  "2120": "word_2120",
  "2121": "word_2121",
  "2122": "word_2122",
  "2123": "word_2123",
  "2124": "word_2124",
  "2125": "word_2125",
  "2126": "word_2126",
  "2127": "word_2127",
  "2128": "word_2128",
  "2129": "word_2129",
  "2130": "word_2130",
  "2131": "word_2131",
  "2132": "word_2132",
  "2133": "word_2133",
  "2134": "word_2134",
  "2135": "word_2135",
  "2136": "word_2136",
  "2137": "word_2137",
  "2138": "word_2138",
  "2139": "word_2139",
  "2140": "word_2140",
  "2141": "word_2141",
  "2142": "word_2142",
  "2143": "word_2143",
  "2144": "word_2144",
  "2145": "word_2145",
  "2146": "word_2146",
  "2147": "word_2147",
  "2148": "word_2148",
  "2149": "word_2149",
  "2150": "word_2150",
  "2151": "word_2151",
  "2152": "word_2152",
  "2153": "word_2153",
  "2154": "word_2154",
  "2155": "word_2155",
  "2156": "word_2156",
  "2157": "word_2157",
  "2158": "word_2158",
  "2159": "word_2159",
  "2160": "word_2160",
  "2161": "word_2161",
  "2162": "word_2162",
  "2163": "word_2163",
  "2164": "word_2164",
  "2165": "word_2165",
  "2166": "word_2166",
  "2167": "word_2167",
  "2168": "word_2168",
  "2169": "word_2169",
  "2170": "word_2170",
  "2171": "word_2171",
  "2172": "word_2172",
  "2173": "word_2173",
  "2174": "word_2174",
  "2175": "word_2175",
  "2176": "word_2176",
  "2177": "word_2177",
  "2178": "word_2178",
  "2179": "word_2179",
  "2180": "word_2180",
  "2181": "word_2181",
  "2182": "word_2182",
  "2183": "word_2183",
  "2184": "word_2184",
  "2185": "word_2185",
  "2186": "word_2186",
  "2187": "word_2187",
  "2188": "word_2188",
  "2189": "word_2189",
  "2190": "word_2190",
  "2191": "word_2191",
  "2192": "word_2192",
  "2193": "word_2193",
  "2194": "word_2194",
  "2195": "word_2195",
  "2196": "word_2196",
  "2197": "word_2197",
  "2198": "word_2198",
  "2199": "word_2199",
  "2200": "word_2200",
  "2201": "word_2201",
  "2202": "word_2202",
  "2203": "word_2203",
  "2204": "word_2204",
  "2205": "word_2205",
  "2206": "word_2206",
  "2207": "word_2207",
  "2208": "word_2208",
  "2209": "word_2209",
  "2210": "word_2210",
  "2211": "word_2211",
  "2212": "word_2212",
  "2213": "word_2213",
  "2214": "word_2214",
  "2215": "word_2215",
  "2216": "word_2216",
  "2217": "word_2217",
  "2218": "word_2218",
  "2219": "word_2219",
  "2220": "word_2220",
  "2221": "word_2221",
  "2222": "word_2222",
  "2223": "word_2223",
  "2224": "word_2224",
  "2225": "word_2225",
  "2226": "word_2226",
  "2227": "word_2227",
  "2228": "word_2228",
  "2229": "word_2229",
  "2230": "word_2230",
  "2231": "word_2231",
  "2232": "word_2232",
  "2233": "word_2233",
  "2234": "word_2234",
  "2235": "word_2235",
  "2236": "word_2236",
  "2237": "word_2237",
  "2238": "word_2238",
  "2239": "word_2239",
  "2240": "word_2240",
  "2241": "word_2241",
  "2242": "word_2242",
  "2243": "word_2243",
  "2244": "word_2244",
  "2245": "word_2245",
  "2246": "word_2246",
  "2247": "word_2247",
  "2248": "word_2248",
  "2249": "word_2249",
  "2250": "word_2250",
  "2251": "word_2251",
  "2252": "word_2252",
  "2253": "word_2253",
  "2254": "word_2254",
  "2255": "word_2255",
  "2256": "word_2256",
  "2257": "word_2257",
  "2258": "word_2258",
  "2259": "word_2259",
  "2260": "word_2260",
  "2261": "word_2261",
  "2262": "word_2262",
  "2263": "word_2263",
  "2264": "word_2264",
  "2265": "word_2265",
  "2266": "word_2266",
  "2267": "word_2267",
  "2268": "word_2268",
  "2269": "word_2269",
  "2270": "word_2270",
  "2271": "word_2271",
  "2272": "word_2272",
  "2273": "word_2273",
  "2274": "word_2274",
  "2275": "word_2275",
  "2276": "word_2276",
  "2277": "word_2277",
  "2278": "word_2278",
  "2279": "word_2279",
  "2280": "word_2280",
  "2281": "word_2281",
  "2282": "word_2282",
  "2283": "word_2283",
  "2284": "word_2284",
  "2285": "word_2285",
  "2286": "word_2286",
  "2287": "word_2287",
  "2288": "word_2288",
  "2289": "word_2289",
  "2290": "word_2290",
  "2291": "word_2291",
  "2292": "word_2292",
  "2293": "word_2293",
  "2294": "word_2294",
  "2295": "word_2295",
  "2296": "word_2296",
  "2297": "word_2297",
  "2298": "word_2298",
  "2299": "word_2299",
  "2300": "word_2300",
  "2301": "word_2301",
  "2302": "word_2302",
  "2303": "word_2303",
  "2304": "word_2304",
  "2305": "word_2305",
  "2306": "word_2306",
  "2307": "word_2307",
  "2308": "word_2308",
  "2309": "word_2309",
  "2310": "word_2310",
  "2311": "word_2311",
  "2312": "word_2312",
  "2313": "word_2313",
  "2314": "word_2314",
  "2315": "word_2315",
  "2316": "word_2316",
  "2317": "word_2317",
  "2318": "word_2318",
  "2319": "word_2319",
  "2320": "word_2320",
  "2321": "word_2321",
  "2322": "word_2322",
  "2323": "word_2323",
  "2324": "word_2324"
}